3EE41B77
3EBAE43B
3DE2AFE8
3D4E25FE
3EB3D294
BE224A69
BE035001
3D51CAF6
3E20F7E0
BD5D9288
BEAD8030
3E59726D
3ED8B94E
BD19CC09
3E8526CA
3E9883AC
BCA8B47F
3E9F0E5A
3EA84926
BED7FBC0
BF078850
3E941E79
BBB1C001
3D706A26
3E5F9D67
BF0CF2E8
3EAB1A98
3E9E7738
3D57945C
3A290720

