3E6E62F8
3E8460BC
BCFBAED2
BE8C3FC8
BD0EDEE8
3CBA6881
BD39317F
BDB85F08
3E354FF8
3E799E54
BE6F4950
3EB9DC2E
BEAC026B
3E573AF8
BE3EF78C
3D5790F9
3E4AEF7C
BDE963DC
3DE89704
3E62EE64
3E835876
3E18043C
3E0B1E04
3DB559D4
3E9FBCC8
3E2A1AE8
BE19D2F8
BDD17440
3C7D599D
BDBCA4A8

