BEE791CA
BE3829C2
BEAD1E7C
BEA5298C
BE4B2355
3D0A4D1E
BDCAA708
3D9DCC30
3D7D1252
BE4A3CEA
BD71F54E
3E6A6E82
BDEEA2D0
3CDD56D3
3DE09CBF
BE8CA7DB
3DBB5034
3CE76E49
BDDED406
3E03F436
3D8A02E9
BECF5BDB
3DA066F8
BDDD134A
3E670C06
BE34FA7B
3D690865
3E32DE2F
BE50835A
BDE14499

