BE24E9D1
BE97ECB2
BE8A136F
BE7ED135
BE8080A0
3E80D416
3D290979
3CB7D452
BE7B0DCF
BE7BF005
BD0443A7
BDE12440
3DEA0AC9
3E9D5AD0
BE92CA84
BEA59E5F
BE24EDF2
BEA23B39
BE8D688C
BCFBB700
BE0C9462
BCD12501
3DE4FF34
3DE97EF7
BD0F5230
3E9434D6
BDFE55CA
BE515BFA
BE3E7761
BDC933A4

