BF0A39FA
3CB3FF4B
BE38F68E
BDB7A833
3E2F3653
3E2AC13A
BEC3CD3A
3E930E55
3EABBF6B
BDCE936A
BE27DD50
BEED6729
BF3E54A8
3E7A88F1
3E83ABA2
3F0FAEFD
BF2470D5
3EB56329
BEE49AAC
3E414277
3E25F83B
3E2B1B56
BE199A41
3D2623FC
3F193745
BEB08613
3DAD4BAD
BDFA541A
BF39A07C
BF420C12

