3F59650B
3EC6E3D1
3E502E6C
3E4A7D40
3EC9FCBC
BE20A36B
BF0921B0
3D77B566
3F037F12
3ED74A1B
BEA122C7
BD6932CF
3E403089
BF1839AC
BBAA137A
BDBC11DC
3F2F388D
3E7E9BAE
3EA9FFE0
BEA3CE23
BE3D104B
BE480FB6
BE9D24B8
BEEA292D
BDD8B1DF
3C0EDE14
BEC679F4
3F22B98A
3BF2F062
3ECCAEE6

