BE8245C7
3E382A26
3DE770DD
3E561409
BE3E0D00
3E0763E1
BE938D33
3EB63EE2
BE19A087
3E4F0C87
3D065717
BEB8A10C
BEBA4888
3E117CCE
3EF71C6E
3F05083C
BEE0D1F8
3EC28291
BE65B0B6
BE069CB0
3E0F033F
3CE707CC
BC435CAC
3D15DFAB
3B8D7F5A
3E2B997F
3D1DACC7
3DE6EB8E
BEBB8C7C
BEDDA66C

