3E4D3290
BF000DE2
3CC14DB8
BEBEBEAE
3BF0F246
3E1B72AA
BE850EEB
BD98CBF5
BD872EE5
BE4063FE
BED5F091
BEDAB0BE
3C97203D
3F3C9C88
3F0C193A
3E839FC8
BA97AEDE
BF059D2B
3D070228
3DE54032
3F34D087
BE8574CC
3E964CAD
BE95AE92
3F04DD65
BD9B6BC3
BE1216FF
BF113B37
BE5333E7
BE47CDE8

