BCBDE259
BEFE2D22
BEEAEE1B
BD8649FE
BE9A6350
BE31E58F
3F72B732
3E904FBB
BF1F9F0F
BEBA12EF
3EC230BE
BF2EC35A
BE9C10D8
BEE93D1E
3D296958
BE162962
BF4A6797
BEBC7C9C
BDF8A23A
3EDC3E41
BEF60032
3E7B93EE
3E5B43D9
3F21399D
3E893879
BD9C459B
BEC9624E
3D8FB15E
BE4BB736
BE1F7B2F

