BE51F353
BF1081F5
BE8884CF
BE98A36E
BE288D4A
3F5B6A21
BEA4715F
3F29D248
BEDF3F89
3E136FDB
BE36A933
BEE9E5A8
3E07B936
3E70D3B9
BDA8E4F8
BC44E420
BE72A376
BD94BB82
BD281A91
3F39AEDE
3F03E524
BEA541E2
BE34A88A
BE9C9E26
3EA0CD1A
3E607570
3E9E297B
3DF80ACC
3D64ECCC
BD6DE330

