3EB2D6B4
3BA950C7
3F0DB285
3F36659F
BEB3ED78
3E061286
BE3BA906
BF182106
3E357C84
BED4A356
BF00D5C2
BD47236D
3E18B31F
3EA107A3
3EB68379
3E7D1D85
BE87EBD2
3F036191
BE9E8B1C
3D2D0B41
BCD84404
3E05898D
BF00DCF0
BE1EC06F
BE2A9F5E
BF154A4A
3EB4312A
BE6448B6
3DCE99A3
BE97D333

