3D6AC94A
3DD45EA8
3EE8869A
3ECEE481
BE872D31
BD2278C9
3EBC4B6F
3DA18E58
BE0A7436
BEDEB4EE
BDF817BB
3EFD8B41
3DFA690D
3F19EEFA
BEA1472B
3E3FD1D9
BE36C042
BDA4620A
BE10530F
3E49D7F3
3E409158
BD125B01
3E6ADEAC
BECDB2FA
BE58E15C
BE6FFE51
BE3313E7
BEB44333
3EB35A69
BE4280AB

