BF45D111
3F223525
BD01BCD9
BE8AD01B
BF41700D
3DA779AC
3EFB702A
BF5CE363
3F9E2550
BE86003E
3E67A77F
3E1D3987
3E60E872
3F211C55
BF14C833
BF77846D
3E82FE52
BF0BCDB3
BCCD3268
3F81A857
3F26F300
3DC3960B
BF509BF7
3ECA5F1D
BF9169A0
BE9B782A
BE6A8463
BF06B43A
BE1E8E0D
3DA7BD58

