BE2AEAB3
BE782D53
BEF3B73D
3E39C5B0
3EDF6E02
BE0CEA2F
BD7DD358
3DD9B7FC
3E779AC2
3F2DBECC
3EDE99A3
3F1E2D01
BF102272
3E21E272
3E65DEB1
3F00A4BC
3E87FE9D
3E8E90A7
BF0E1485
BEB35050
3E600672
3E485359
BEAF5A0C
3F030E12
3E87CBF1
BF3F27F9
BE5BAA4E
BED616B5
BE5FB3DF
3F01C9AE

