3D0A4785
3E998B79
3F092BF6
3EE20E14
3E0910CC
BE7CF36C
BC957913
BDDF061C
3DB1244C
BD61FF1C
3DFF05B7
3E21EDDC
BBA84B62
3DC4FA33
3E45F244
3DB128C0
BDCD38FE
BCCF341D
BE7A2F59
3E334559
BE84EB17
BE9D38B9
3EC1E753
3D5D6D00
BE082E24
BE1738B6
3DABF2F9
BE3FE9FA
3E382567
BE01212E

