3D6ED761
3D5A0290
3DB839B4
BE68ADA0
3E8F0D90
BEB43914
3D889373
3B34ED07
BE8E29B6
3E46AE80
BE8BF9FE
3EB20CB4
BDA438A0
3C146385
3E06A866
BE8116DA
BE180FE0
3E337BF0
3E851206
BEB642CE
3E2AEF48
BD6F6538
BEB75B06
3E462070
3DD8B47C
BDB873E3
BC591D5D
3D044608
3EA5DF76
3CC65EFF

